/* Generated by Edge Impulse
 *
 * Permission is hereby granted, free of charge, to any person obtaining a copy
 * of this software and associated documentation files (the "Software"), to deal
 * in the Software without restriction, including without limitation the rights
 * to use, copy, modify, merge, publish, distribute, sublicense, and/or sell
 * copies of the Software, and to permit persons to whom the Software is
 * furnished to do so, subject to the following conditions:
 *
 * The above copyright notice and this permission notice shall be included in
 * all copies or substantial portions of the Software.
 *
 * THE SOFTWARE IS PROVIDED "AS IS", WITHOUT WARRANTY OF ANY KIND, EXPRESS OR
 * IMPLIED, INCLUDING BUT NOT LIMITED TO THE WARRANTIES OF MERCHANTABILITY,
 * FITNESS FOR A PARTICULAR PURPOSE AND NONINFRINGEMENT. IN NO EVENT SHALL THE
 * AUTHORS OR COPYRIGHT HOLDERS BE LIABLE FOR ANY CLAIM, DAMAGES OR OTHER
 * LIABILITY, WHETHER IN AN ACTION OF CONTRACT, TORT OR OTHERWISE, ARISING FROM,
 * OUT OF OR IN CONNECTION WITH THE SOFTWARE OR THE USE OR OTHER DEALINGS IN THE
 * SOFTWARE.
 */

#ifndef _EI_CLASSIFIER_TFLITE_TRAINED_H_
#define _EI_CLASSIFIER_TFLITE_TRAINED_H_

#define EI_CLASSIFIER_TFLITE_ARENA_SIZE     2598

#if defined __GNUC__
#define ALIGN(X) __attribute__((aligned(X)))
#elif defined _MSC_VER
#define ALIGN(X) __declspec(align(X))
#elif defined __TASKING__
#define ALIGN(X) __align(X)
#else
#define ALIGN(X)
#endif
ALIGN(16) const unsigned char trained_tflite[] = {
  0x20, 0x00, 0x00, 0x00, 0x54, 0x46, 0x4c, 0x33, 0x00, 0x00, 0x00, 0x00,
  0x14, 0x00, 0x20, 0x00, 0x1c, 0x00, 0x18, 0x00, 0x14, 0x00, 0x10, 0x00,
  0x0c, 0x00, 0x00, 0x00, 0x08, 0x00, 0x04, 0x00, 0x14, 0x00, 0x00, 0x00,
  0x1c, 0x00, 0x00, 0x00, 0x8c, 0x00, 0x00, 0x00, 0xbc, 0x00, 0x00, 0x00,
  0x78, 0x05, 0x00, 0x00, 0x88, 0x05, 0x00, 0x00, 0xc8, 0x0b, 0x00, 0x00,
  0x03, 0x00, 0x00, 0x00, 0x01, 0x00, 0x00, 0x00, 0x10, 0x00, 0x00, 0x00,
  0x00, 0x00, 0x0a, 0x00, 0x10, 0x00, 0x0c, 0x00, 0x08, 0x00, 0x04, 0x00,
  0x0a, 0x00, 0x00, 0x00, 0x0c, 0x00, 0x00, 0x00, 0x1c, 0x00, 0x00, 0x00,
  0x3c, 0x00, 0x00, 0x00, 0x0f, 0x00, 0x00, 0x00, 0x73, 0x65, 0x72, 0x76,
  0x69, 0x6e, 0x67, 0x5f, 0x64, 0x65, 0x66, 0x61, 0x75, 0x6c, 0x74, 0x00,
  0x01, 0x00, 0x00, 0x00, 0x04, 0x00, 0x00, 0x00, 0xc4, 0xff, 0xff, 0xff,
  0x0a, 0x00, 0x00, 0x00, 0x04, 0x00, 0x00, 0x00, 0x08, 0x00, 0x00, 0x00,
  0x6f, 0x75, 0x74, 0x70, 0x75, 0x74, 0x5f, 0x30, 0x00, 0x00, 0x00, 0x00,
  0x01, 0x00, 0x00, 0x00, 0x04, 0x00, 0x00, 0x00, 0x6e, 0xfa, 0xff, 0xff,
  0x04, 0x00, 0x00, 0x00, 0x01, 0x00, 0x00, 0x00, 0x78, 0x00, 0x00, 0x00,
  0x01, 0x00, 0x00, 0x00, 0x0c, 0x00, 0x00, 0x00, 0x08, 0x00, 0x0c, 0x00,
  0x08, 0x00, 0x04, 0x00, 0x08, 0x00, 0x00, 0x00, 0x0c, 0x00, 0x00, 0x00,
  0x04, 0x00, 0x00, 0x00, 0x13, 0x00, 0x00, 0x00, 0x6d, 0x69, 0x6e, 0x5f,
  0x72, 0x75, 0x6e, 0x74, 0x69, 0x6d, 0x65, 0x5f, 0x76, 0x65, 0x72, 0x73,
  0x69, 0x6f, 0x6e, 0x00, 0x0d, 0x00, 0x00, 0x00, 0xb8, 0x04, 0x00, 0x00,
  0xb0, 0x04, 0x00, 0x00, 0x0c, 0x02, 0x00, 0x00, 0xac, 0x01, 0x00, 0x00,
  0xd4, 0x00, 0x00, 0x00, 0x9c, 0x00, 0x00, 0x00, 0x64, 0x00, 0x00, 0x00,
  0x44, 0x00, 0x00, 0x00, 0x3c, 0x00, 0x00, 0x00, 0x34, 0x00, 0x00, 0x00,
  0x2c, 0x00, 0x00, 0x00, 0x24, 0x00, 0x00, 0x00, 0x04, 0x00, 0x00, 0x00,
  0xea, 0xfa, 0xff, 0xff, 0x04, 0x00, 0x00, 0x00, 0x10, 0x00, 0x00, 0x00,
  0x31, 0x2e, 0x31, 0x34, 0x2e, 0x30, 0x00, 0x00, 0x00, 0x00, 0x00, 0x00,
  0x00, 0x00, 0x00, 0x00, 0xd4, 0xfa, 0xff, 0xff, 0xd8, 0xfa, 0xff, 0xff,
  0xdc, 0xfa, 0xff, 0xff, 0xe0, 0xfa, 0xff, 0xff, 0x16, 0xfb, 0xff, 0xff,
  0x04, 0x00, 0x00, 0x00, 0x10, 0x00, 0x00, 0x00, 0x69, 0x01, 0x00, 0x00,
  0xf2, 0xfe, 0xff, 0xff, 0xc7, 0xff, 0xff, 0xff, 0xdc, 0xff, 0xff, 0xff,
  0x32, 0xfb, 0xff, 0xff, 0x04, 0x00, 0x00, 0x00, 0x28, 0x00, 0x00, 0x00,
  0x3d, 0xf8, 0xf4, 0xe4, 0xaa, 0x98, 0x81, 0x00, 0x2c, 0xfa, 0x0d, 0xff,
  0x0a, 0x17, 0xed, 0xf9, 0x09, 0xeb, 0x15, 0x0b, 0xbf, 0xe3, 0xb6, 0x1f,
  0x21, 0x1c, 0x18, 0xf9, 0x0e, 0xdf, 0x96, 0x1c, 0x3b, 0x00, 0x1d, 0x1d,
  0x14, 0xe5, 0xb9, 0x41, 0x66, 0xfb, 0xff, 0xff, 0x04, 0x00, 0x00, 0x00,
  0x28, 0x00, 0x00, 0x00, 0x2c, 0x0c, 0x00, 0x00, 0x9f, 0xff, 0xff, 0xff,
  0x9d, 0x02, 0x00, 0x00, 0x92, 0x01, 0x00, 0x00, 0xde, 0x00, 0x00, 0x00,
  0x35, 0x00, 0x00, 0x00, 0x7e, 0xfe, 0xff, 0xff, 0x5c, 0xfe, 0xff, 0xff,
  0xd1, 0x05, 0x00, 0x00, 0xef, 0x00, 0x00, 0x00, 0x9a, 0xfb, 0xff, 0xff,
  0x04, 0x00, 0x00, 0x00, 0xc8, 0x00, 0x00, 0x00, 0xba, 0x25, 0x3f, 0x0a,
  0x4b, 0xf2, 0xdf, 0x1f, 0xdc, 0xc7, 0x20, 0xca, 0x3c, 0x24, 0x30, 0xf6,
  0xe8, 0x3b, 0xfc, 0xfc, 0xee, 0x04, 0xf2, 0x07, 0x06, 0x02, 0x13, 0xf4,
  0xf6, 0xec, 0x01, 0xee, 0xfa, 0xf6, 0xeb, 0xe9, 0xf4, 0x0e, 0x0c, 0xe4,
  0xe2, 0x35, 0x30, 0xf7, 0x0a, 0x19, 0x10, 0xf6, 0x32, 0x1b, 0xdb, 0xfb,
  0x00, 0xe0, 0xfd, 0xf4, 0x06, 0x1c, 0xe1, 0x0b, 0x13, 0xf5, 0xe0, 0xfe,
  0xfc, 0x11, 0x15, 0x04, 0x1d, 0xeb, 0x31, 0x10, 0xf7, 0xff, 0xd9, 0x26,
  0xee, 0x20, 0x0a, 0xf4, 0x5f, 0xfa, 0xea, 0xf1, 0xc6, 0x35, 0x20, 0xe5,
  0x1f, 0x56, 0x14, 0x29, 0xdc, 0x24, 0xf5, 0x28, 0x10, 0xdd, 0x35, 0x2b,
  0x79, 0x0b, 0xde, 0x07, 0xd2, 0x1f, 0x2f, 0xe8, 0x4b, 0x33, 0xf8, 0x69,
  0xde, 0x2b, 0xdb, 0x3f, 0xf5, 0xfa, 0x09, 0x3c, 0x7f, 0xf2, 0xfb, 0x1e,
  0xf1, 0x2e, 0x2f, 0xe7, 0x43, 0x40, 0x0d, 0x4e, 0xc4, 0x15, 0xea, 0x2b,
  0xf4, 0x10, 0x12, 0x1f, 0xf2, 0x07, 0xeb, 0xe6, 0xfa, 0xf3, 0xf4, 0xe7,
  0x0d, 0x0e, 0x0c, 0x14, 0xf7, 0xfb, 0xfd, 0xf2, 0xeb, 0x02, 0xf2, 0x02,
  0xd7, 0x0b, 0x0d, 0x1a, 0x3a, 0xf5, 0xfc, 0xed, 0xe8, 0xd9, 0x36, 0xfa,
  0x2f, 0x28, 0x32, 0x06, 0xdf, 0x40, 0x03, 0xf5, 0xfc, 0x26, 0x11, 0x0c,
  0xe6, 0x26, 0x15, 0xef, 0x27, 0x08, 0xe6, 0x18, 0xde, 0xf0, 0xdb, 0x05,
  0x28, 0x1b, 0xfe, 0x23, 0x6e, 0xfc, 0xff, 0xff, 0x04, 0x00, 0x00, 0x00,
  0x50, 0x00, 0x00, 0x00, 0x38, 0xff, 0xff, 0xff, 0xfe, 0x03, 0x00, 0x00,
  0xd6, 0x06, 0x00, 0x00, 0x46, 0xff, 0xff, 0xff, 0xc3, 0x07, 0x00, 0x00,
  0xbb, 0xff, 0xff, 0xff, 0x05, 0xff, 0xff, 0xff, 0x8f, 0x04, 0x00, 0x00,
  0x07, 0xff, 0xff, 0xff, 0x1b, 0xfe, 0xff, 0xff, 0x54, 0x07, 0x00, 0x00,
  0xd5, 0xfd, 0xff, 0xff, 0x8a, 0x07, 0x00, 0x00, 0xb7, 0x05, 0x00, 0x00,
  0xbc, 0x06, 0x00, 0x00, 0x8a, 0x00, 0x00, 0x00, 0x17, 0xfc, 0xff, 0xff,
  0x00, 0x08, 0x00, 0x00, 0x3c, 0x00, 0x00, 0x00, 0xc9, 0xff, 0xff, 0xff,
  0xca, 0xfc, 0xff, 0xff, 0x04, 0x00, 0x00, 0x00, 0x94, 0x02, 0x00, 0x00,
  0x5c, 0xfc, 0x08, 0x04, 0xfc, 0xf2, 0xec, 0xef, 0x31, 0x0c, 0x17, 0x38,
  0xfa, 0x20, 0x05, 0x08, 0x11, 0xed, 0x10, 0x33, 0xb9, 0xc8, 0x7f, 0x03,
  0x07, 0x01, 0x0b, 0x0e, 0xfb, 0xf8, 0x66, 0x05, 0x3e, 0x35, 0x06, 0x00,
  0x06, 0x07, 0x16, 0x0f, 0x13, 0x15, 0x73, 0x5a, 0x23, 0x0f, 0x03, 0x00,
  0x0e, 0x00, 0xf9, 0x10, 0x08, 0x5e, 0xfb, 0xc5, 0x01, 0x06, 0xff, 0xf3,
  0x0a, 0xee, 0x01, 0xd8, 0xf9, 0xbd, 0x0f, 0xff, 0xf9, 0x08, 0xf9, 0x07,
  0xeb, 0xfa, 0x12, 0x5a, 0x3d, 0xfb, 0xfa, 0xf1, 0x04, 0xf2, 0xef, 0xfa,
  0x14, 0xce, 0x70, 0x07, 0xac, 0x09, 0xd4, 0x0d, 0xe0, 0xfa, 0xff, 0xf2,
  0xa4, 0x06, 0xc5, 0xc7, 0x00, 0xd6, 0x0e, 0x0f, 0x05, 0xee, 0x04, 0xe8,
  0xde, 0xe2, 0xe6, 0xf9, 0xfd, 0xff, 0xfd, 0xf9, 0xfb, 0x16, 0xfd, 0xff,
  0x02, 0x1a, 0x01, 0x06, 0x0f, 0xf4, 0xf7, 0x11, 0x04, 0xfe, 0x21, 0x06,
  0xbc, 0x0d, 0xe0, 0x0f, 0x09, 0x14, 0xec, 0xf7, 0xc5, 0xc0, 0xd1, 0xef,
  0x0b, 0x06, 0xfc, 0x0c, 0xf4, 0xf6, 0x05, 0xe1, 0x51, 0x2b, 0xb2, 0x04,
  0xf8, 0xfe, 0x05, 0x07, 0x15, 0x00, 0xab, 0x28, 0xf5, 0x58, 0xf7, 0x0a,
  0x04, 0x04, 0x0b, 0x08, 0x08, 0x33, 0x3a, 0x33, 0x41, 0x21, 0x11, 0x13,
  0x0a, 0xea, 0x04, 0x10, 0x3a, 0x00, 0xe1, 0x34, 0x0b, 0xf4, 0x0b, 0x0b,
  0xf9, 0x08, 0x08, 0x3f, 0xf4, 0x00, 0x39, 0x1b, 0xe9, 0xf3, 0xf2, 0x06,
  0x06, 0xfb, 0x10, 0x28, 0xfc, 0x24, 0x00, 0xed, 0x13, 0x04, 0xf3, 0x04,
  0x06, 0xe6, 0xbe, 0xba, 0x6b, 0xda, 0x00, 0xfe, 0xff, 0x04, 0x02, 0xf9,
  0x63, 0x18, 0x23, 0xd0, 0x1a, 0xea, 0xfd, 0xf2, 0x17, 0x04, 0xea, 0xf6,
  0xbd, 0xf2, 0xfb, 0x00, 0x0c, 0xec, 0xf6, 0xfe, 0xed, 0x01, 0x0f, 0x47,
  0x33, 0xcb, 0x08, 0x1e, 0xe3, 0x06, 0x07, 0x09, 0x10, 0xc9, 0x20, 0xdd,
  0x50, 0x09, 0x12, 0xf5, 0x1b, 0x0d, 0xfb, 0xfb, 0x3c, 0x39, 0x26, 0x55,
  0x0e, 0x11, 0xfb, 0x04, 0xfe, 0xfb, 0x11, 0x1b, 0xfc, 0xde, 0x2f, 0xf7,
  0xee, 0x13, 0xee, 0x08, 0x0e, 0x00, 0x20, 0xf3, 0xfa, 0x49, 0x04, 0x12,
  0x0d, 0xea, 0x00, 0xff, 0xf7, 0x47, 0x4b, 0x41, 0x1d, 0x00, 0x04, 0x00,
  0xf6, 0xff, 0x0c, 0x13, 0x0c, 0xd8, 0xc9, 0x4e, 0x0b, 0x12, 0xf0, 0x03,
  0xef, 0x15, 0x0d, 0x43, 0xe6, 0x0d, 0xb9, 0x01, 0xf8, 0xfa, 0x23, 0xf8,
  0x08, 0xff, 0xcc, 0xb4, 0xb5, 0x00, 0x0a, 0x0c, 0x04, 0xe9, 0xf2, 0x0c,
  0xf9, 0xef, 0xd6, 0x12, 0x2f, 0xfb, 0xf8, 0x0d, 0x03, 0x0c, 0x0d, 0xec,
  0x30, 0x75, 0x3a, 0x5a, 0x09, 0xfb, 0xfd, 0x04, 0x16, 0x05, 0x11, 0x3a,
  0x30, 0x04, 0x3a, 0x05, 0xe2, 0xf8, 0x10, 0x02, 0x08, 0x12, 0x29, 0x9c,
  0xaa, 0x6b, 0x02, 0x0c, 0xfe, 0x1e, 0x16, 0xf4, 0x0e, 0x64, 0x35, 0x37,
  0xc2, 0x13, 0xfd, 0x01, 0x21, 0xf8, 0x06, 0xf6, 0xc9, 0xd9, 0xd0, 0xcf,
  0xfc, 0x17, 0x16, 0xec, 0x17, 0x08, 0xe9, 0xe8, 0x2d, 0x36, 0xd2, 0x05,
  0xf6, 0xfe, 0xda, 0x04, 0x13, 0xf6, 0xc0, 0x13, 0xea, 0xe0, 0x08, 0xf0,
  0x0b, 0x05, 0xf8, 0x0a, 0xfb, 0xe1, 0xbb, 0xd1, 0x0b, 0x0e, 0xf1, 0x00,
  0xf9, 0xf5, 0xf0, 0x06, 0x0f, 0xbe, 0x01, 0x43, 0x05, 0xf3, 0x17, 0x25,
  0x03, 0x19, 0xf5, 0x1a, 0x78, 0x5b, 0xb4, 0x00, 0x23, 0xfa, 0x0f, 0xf7,
  0x0c, 0x0f, 0xd3, 0xb6, 0xc5, 0xe5, 0x02, 0x00, 0x08, 0xfe, 0xfa, 0xfc,
  0xf6, 0xec, 0x38, 0x49, 0xce, 0x04, 0x13, 0x0a, 0xf9, 0x00, 0xfd, 0x01,
  0xd7, 0x2b, 0x15, 0x18, 0x13, 0xf1, 0x03, 0xfd, 0x13, 0xf0, 0xf4, 0xf6,
  0xcc, 0xb1, 0x32, 0x05, 0x08, 0x14, 0xde, 0xfe, 0x08, 0x0f, 0x2c, 0xa2,
  0xca, 0x6b, 0xeb, 0xe2, 0xf8, 0x1a, 0x09, 0x06, 0x02, 0x54, 0x35, 0x42,
  0x10, 0x18, 0x1b, 0x07, 0xfc, 0x01, 0xff, 0xf5, 0x20, 0x4b, 0x36, 0xf3,
  0xf3, 0xf4, 0xf5, 0x14, 0x0e, 0x0f, 0xec, 0x06, 0x09, 0xd0, 0xdf, 0x17,
  0xee, 0x06, 0xee, 0x07, 0x1a, 0x16, 0xf7, 0xc7, 0xe5, 0xc3, 0xff, 0xbd,
  0xfb, 0x26, 0xf6, 0x04, 0x11, 0xa1, 0xc4, 0xcf, 0x25, 0x11, 0x0d, 0x0d,
  0x0f, 0x09, 0x07, 0xf4, 0xdb, 0x47, 0x23, 0xca, 0xdd, 0xe1, 0xf8, 0xde,
  0x11, 0x08, 0x0c, 0xac, 0x31, 0x08, 0xec, 0x02, 0x15, 0x0d, 0x0f, 0x07,
  0xfe, 0xf0, 0xe1, 0x9c, 0xa9, 0xf3, 0x0f, 0xf7, 0xf7, 0x10, 0xf5, 0xfb,
  0xec, 0x04, 0xbb, 0xf0, 0x4a, 0x1a, 0xfa, 0xe3, 0x17, 0xfa, 0x05, 0xff,
  0x61, 0x40, 0x5a, 0x3d, 0x0c, 0x1d, 0x12, 0x08, 0x01, 0x02, 0xec, 0x42,
  0x5f, 0x35, 0x4c, 0x0a, 0x10, 0x14, 0x0d, 0xfc, 0xe5, 0x07, 0x1b, 0xf0,
  0xf8, 0x47, 0xec, 0x13, 0x11, 0x00, 0x17, 0xe6, 0xe9, 0x16, 0xd1, 0x1d,
  0x38, 0xff, 0xff, 0xff, 0x3c, 0xff, 0xff, 0xff, 0x0f, 0x00, 0x00, 0x00,
  0x4d, 0x4c, 0x49, 0x52, 0x20, 0x43, 0x6f, 0x6e, 0x76, 0x65, 0x72, 0x74,
  0x65, 0x64, 0x2e, 0x00, 0x01, 0x00, 0x00, 0x00, 0x14, 0x00, 0x00, 0x00,
  0x00, 0x00, 0x0e, 0x00, 0x18, 0x00, 0x14, 0x00, 0x10, 0x00, 0x0c, 0x00,
  0x08, 0x00, 0x04, 0x00, 0x0e, 0x00, 0x00, 0x00, 0x14, 0x00, 0x00, 0x00,
  0x1c, 0x00, 0x00, 0x00, 0x28, 0x01, 0x00, 0x00, 0x2c, 0x01, 0x00, 0x00,
  0x30, 0x01, 0x00, 0x00, 0x04, 0x00, 0x00, 0x00, 0x6d, 0x61, 0x69, 0x6e,
  0x00, 0x00, 0x00, 0x00, 0x04, 0x00, 0x00, 0x00, 0xd0, 0x00, 0x00, 0x00,
  0x88, 0x00, 0x00, 0x00, 0x50, 0x00, 0x00, 0x00, 0x14, 0x00, 0x00, 0x00,
  0x00, 0x00, 0x0e, 0x00, 0x1a, 0x00, 0x14, 0x00, 0x10, 0x00, 0x0c, 0x00,
  0x0b, 0x00, 0x04, 0x00, 0x0e, 0x00, 0x00, 0x00, 0x1c, 0x00, 0x00, 0x00,
  0x00, 0x00, 0x00, 0x09, 0x1c, 0x00, 0x00, 0x00, 0x20, 0x00, 0x00, 0x00,
  0x01, 0x00, 0x00, 0x00, 0x00, 0x00, 0x06, 0x00, 0x08, 0x00, 0x04, 0x00,
  0x06, 0x00, 0x00, 0x00, 0x00, 0x00, 0x80, 0x3f, 0x01, 0x00, 0x00, 0x00,
  0x0a, 0x00, 0x00, 0x00, 0x01, 0x00, 0x00, 0x00, 0x09, 0x00, 0x00, 0x00,
  0x96, 0xff, 0xff, 0xff, 0x14, 0x00, 0x00, 0x00, 0x00, 0x00, 0x00, 0x08,
  0x10, 0x00, 0x00, 0x00, 0x14, 0x00, 0x00, 0x00, 0x04, 0x00, 0x04, 0x00,
  0x04, 0x00, 0x00, 0x00, 0x01, 0x00, 0x00, 0x00, 0x09, 0x00, 0x00, 0x00,
  0x03, 0x00, 0x00, 0x00, 0x08, 0x00, 0x00, 0x00, 0x05, 0x00, 0x00, 0x00,
  0x06, 0x00, 0x00, 0x00, 0xca, 0xff, 0xff, 0xff, 0x10, 0x00, 0x00, 0x00,
  0x00, 0x00, 0x00, 0x08, 0x10, 0x00, 0x00, 0x00, 0x14, 0x00, 0x00, 0x00,
  0xba, 0xff, 0xff, 0xff, 0x00, 0x00, 0x00, 0x01, 0x01, 0x00, 0x00, 0x00,
  0x08, 0x00, 0x00, 0x00, 0x03, 0x00, 0x00, 0x00, 0x07, 0x00, 0x00, 0x00,
  0x03, 0x00, 0x00, 0x00, 0x04, 0x00, 0x00, 0x00, 0x00, 0x00, 0x0e, 0x00,
  0x16, 0x00, 0x00, 0x00, 0x10, 0x00, 0x0c, 0x00, 0x0b, 0x00, 0x04, 0x00,
  0x0e, 0x00, 0x00, 0x00, 0x18, 0x00, 0x00, 0x00, 0x00, 0x00, 0x00, 0x08,
  0x18, 0x00, 0x00, 0x00, 0x1c, 0x00, 0x00, 0x00, 0x00, 0x00, 0x06, 0x00,
  0x08, 0x00, 0x07, 0x00, 0x06, 0x00, 0x00, 0x00, 0x00, 0x00, 0x00, 0x01,
  0x01, 0x00, 0x00, 0x00, 0x07, 0x00, 0x00, 0x00, 0x03, 0x00, 0x00, 0x00,
  0x00, 0x00, 0x00, 0x00, 0x01, 0x00, 0x00, 0x00, 0x02, 0x00, 0x00, 0x00,
  0x01, 0x00, 0x00, 0x00, 0x0a, 0x00, 0x00, 0x00, 0x01, 0x00, 0x00, 0x00,
  0x00, 0x00, 0x00, 0x00, 0x0b, 0x00, 0x00, 0x00, 0x78, 0x04, 0x00, 0x00,
  0x00, 0x04, 0x00, 0x00, 0xac, 0x03, 0x00, 0x00, 0x40, 0x03, 0x00, 0x00,
  0xe4, 0x02, 0x00, 0x00, 0x78, 0x02, 0x00, 0x00, 0x24, 0x02, 0x00, 0x00,
  0x90, 0x01, 0x00, 0x00, 0xf4, 0x00, 0x00, 0x00, 0x70, 0x00, 0x00, 0x00,
  0x04, 0x00, 0x00, 0x00, 0xc2, 0xfb, 0xff, 0xff, 0x14, 0x00, 0x00, 0x00,
  0x34, 0x00, 0x00, 0x00, 0x0b, 0x00, 0x00, 0x00, 0x00, 0x00, 0x00, 0x09,
  0x48, 0x00, 0x00, 0x00, 0xb4, 0xfb, 0xff, 0xff, 0x08, 0x00, 0x00, 0x00,
  0x14, 0x00, 0x00, 0x00, 0x01, 0x00, 0x00, 0x00, 0x80, 0xff, 0xff, 0xff,
  0xff, 0xff, 0xff, 0xff, 0x00, 0x00, 0x00, 0x00, 0x01, 0x00, 0x00, 0x00,
  0x00, 0x00, 0x80, 0x3b, 0x19, 0x00, 0x00, 0x00, 0x53, 0x74, 0x61, 0x74,
  0x65, 0x66, 0x75, 0x6c, 0x50, 0x61, 0x72, 0x74, 0x69, 0x74, 0x69, 0x6f,
  0x6e, 0x65, 0x64, 0x43, 0x61, 0x6c, 0x6c, 0x3a, 0x30, 0x00, 0x00, 0x00,
  0x02, 0x00, 0x00, 0x00, 0x01, 0x00, 0x00, 0x00, 0x04, 0x00, 0x00, 0x00,
  0x2a, 0xfc, 0xff, 0xff, 0x14, 0x00, 0x00, 0x00, 0x34, 0x00, 0x00, 0x00,
  0x0a, 0x00, 0x00, 0x00, 0x00, 0x00, 0x00, 0x09, 0x60, 0x00, 0x00, 0x00,
  0x1c, 0xfc, 0xff, 0xff, 0x08, 0x00, 0x00, 0x00, 0x14, 0x00, 0x00, 0x00,
  0x01, 0x00, 0x00, 0x00, 0x3a, 0x00, 0x00, 0x00, 0x00, 0x00, 0x00, 0x00,
  0x00, 0x00, 0x00, 0x00, 0x01, 0x00, 0x00, 0x00, 0xa3, 0x99, 0xeb, 0x3e,
  0x32, 0x00, 0x00, 0x00, 0x73, 0x65, 0x71, 0x75, 0x65, 0x6e, 0x74, 0x69,
  0x61, 0x6c, 0x2f, 0x79, 0x5f, 0x70, 0x72, 0x65, 0x64, 0x2f, 0x4d, 0x61,
  0x74, 0x4d, 0x75, 0x6c, 0x3b, 0x73, 0x65, 0x71, 0x75, 0x65, 0x6e, 0x74,
  0x69, 0x61, 0x6c, 0x2f, 0x79, 0x5f, 0x70, 0x72, 0x65, 0x64, 0x2f, 0x42,
  0x69, 0x61, 0x73, 0x41, 0x64, 0x64, 0x00, 0x00, 0x02, 0x00, 0x00, 0x00,
  0x01, 0x00, 0x00, 0x00, 0x04, 0x00, 0x00, 0x00, 0xaa, 0xfc, 0xff, 0xff,
  0x14, 0x00, 0x00, 0x00, 0x30, 0x00, 0x00, 0x00, 0x09, 0x00, 0x00, 0x00,
  0x00, 0x00, 0x00, 0x09, 0x78, 0x00, 0x00, 0x00, 0x9c, 0xfc, 0xff, 0xff,
  0x08, 0x00, 0x00, 0x00, 0x10, 0x00, 0x00, 0x00, 0x01, 0x00, 0x00, 0x00,
  0x80, 0xff, 0xff, 0xff, 0xff, 0xff, 0xff, 0xff, 0x01, 0x00, 0x00, 0x00,
  0x19, 0x8f, 0x7d, 0x3d, 0x4c, 0x00, 0x00, 0x00, 0x73, 0x65, 0x71, 0x75,
  0x65, 0x6e, 0x74, 0x69, 0x61, 0x6c, 0x2f, 0x64, 0x65, 0x6e, 0x73, 0x65,
  0x5f, 0x31, 0x2f, 0x4d, 0x61, 0x74, 0x4d, 0x75, 0x6c, 0x3b, 0x73, 0x65,
  0x71, 0x75, 0x65, 0x6e, 0x74, 0x69, 0x61, 0x6c, 0x2f, 0x64, 0x65, 0x6e,
  0x73, 0x65, 0x5f, 0x31, 0x2f, 0x52, 0x65, 0x6c, 0x75, 0x3b, 0x73, 0x65,
  0x71, 0x75, 0x65, 0x6e, 0x74, 0x69, 0x61, 0x6c, 0x2f, 0x64, 0x65, 0x6e,
  0x73, 0x65, 0x5f, 0x31, 0x2f, 0x42, 0x69, 0x61, 0x73, 0x41, 0x64, 0x64,
  0x00, 0x00, 0x00, 0x00, 0x02, 0x00, 0x00, 0x00, 0x01, 0x00, 0x00, 0x00,
  0x0a, 0x00, 0x00, 0x00, 0x42, 0xfd, 0xff, 0xff, 0x14, 0x00, 0x00, 0x00,
  0x30, 0x00, 0x00, 0x00, 0x08, 0x00, 0x00, 0x00, 0x00, 0x00, 0x00, 0x09,
  0x70, 0x00, 0x00, 0x00, 0x34, 0xfd, 0xff, 0xff, 0x08, 0x00, 0x00, 0x00,
  0x10, 0x00, 0x00, 0x00, 0x01, 0x00, 0x00, 0x00, 0x80, 0xff, 0xff, 0xff,
  0xff, 0xff, 0xff, 0xff, 0x01, 0x00, 0x00, 0x00, 0xcc, 0x12, 0x83, 0x3c,
  0x46, 0x00, 0x00, 0x00, 0x73, 0x65, 0x71, 0x75, 0x65, 0x6e, 0x74, 0x69,
  0x61, 0x6c, 0x2f, 0x64, 0x65, 0x6e, 0x73, 0x65, 0x2f, 0x4d, 0x61, 0x74,
  0x4d, 0x75, 0x6c, 0x3b, 0x73, 0x65, 0x71, 0x75, 0x65, 0x6e, 0x74, 0x69,
  0x61, 0x6c, 0x2f, 0x64, 0x65, 0x6e, 0x73, 0x65, 0x2f, 0x52, 0x65, 0x6c,
  0x75, 0x3b, 0x73, 0x65, 0x71, 0x75, 0x65, 0x6e, 0x74, 0x69, 0x61, 0x6c,
  0x2f, 0x64, 0x65, 0x6e, 0x73, 0x65, 0x2f, 0x42, 0x69, 0x61, 0x73, 0x41,
  0x64, 0x64, 0x00, 0x00, 0x02, 0x00, 0x00, 0x00, 0x01, 0x00, 0x00, 0x00,
  0x14, 0x00, 0x00, 0x00, 0xd2, 0xfd, 0xff, 0xff, 0x14, 0x00, 0x00, 0x00,
  0x30, 0x00, 0x00, 0x00, 0x07, 0x00, 0x00, 0x00, 0x00, 0x00, 0x00, 0x02,
  0x34, 0x00, 0x00, 0x00, 0xc4, 0xfd, 0xff, 0xff, 0x08, 0x00, 0x00, 0x00,
  0x10, 0x00, 0x00, 0x00, 0x01, 0x00, 0x00, 0x00, 0x00, 0x00, 0x00, 0x00,
  0x00, 0x00, 0x00, 0x00, 0x01, 0x00, 0x00, 0x00, 0xae, 0x53, 0x97, 0x3a,
  0x0b, 0x00, 0x00, 0x00, 0x79, 0x5f, 0x70, 0x72, 0x65, 0x64, 0x2f, 0x62,
  0x69, 0x61, 0x73, 0x00, 0x01, 0x00, 0x00, 0x00, 0x04, 0x00, 0x00, 0x00,
  0x22, 0xfe, 0xff, 0xff, 0x14, 0x00, 0x00, 0x00, 0x34, 0x00, 0x00, 0x00,
  0x06, 0x00, 0x00, 0x00, 0x00, 0x00, 0x00, 0x09, 0x48, 0x00, 0x00, 0x00,
  0x14, 0xfe, 0xff, 0xff, 0x08, 0x00, 0x00, 0x00, 0x14, 0x00, 0x00, 0x00,
  0x01, 0x00, 0x00, 0x00, 0x00, 0x00, 0x00, 0x00, 0x00, 0x00, 0x00, 0x00,
  0x00, 0x00, 0x00, 0x00, 0x01, 0x00, 0x00, 0x00, 0xa1, 0xc8, 0x98, 0x3c,
  0x18, 0x00, 0x00, 0x00, 0x73, 0x65, 0x71, 0x75, 0x65, 0x6e, 0x74, 0x69,
  0x61, 0x6c, 0x2f, 0x79, 0x5f, 0x70, 0x72, 0x65, 0x64, 0x2f, 0x4d, 0x61,
  0x74, 0x4d, 0x75, 0x6c, 0x00, 0x00, 0x00, 0x00, 0x02, 0x00, 0x00, 0x00,
  0x04, 0x00, 0x00, 0x00, 0x0a, 0x00, 0x00, 0x00, 0x8a, 0xfe, 0xff, 0xff,
  0x14, 0x00, 0x00, 0x00, 0x34, 0x00, 0x00, 0x00, 0x05, 0x00, 0x00, 0x00,
  0x00, 0x00, 0x00, 0x02, 0x3c, 0x00, 0x00, 0x00, 0x7c, 0xfe, 0xff, 0xff,
  0x08, 0x00, 0x00, 0x00, 0x14, 0x00, 0x00, 0x00, 0x01, 0x00, 0x00, 0x00,
  0x00, 0x00, 0x00, 0x00, 0x00, 0x00, 0x00, 0x00, 0x00, 0x00, 0x00, 0x00,
  0x01, 0x00, 0x00, 0x00, 0x79, 0x5e, 0x86, 0x39, 0x0c, 0x00, 0x00, 0x00,
  0x64, 0x65, 0x6e, 0x73, 0x65, 0x5f, 0x31, 0x2f, 0x62, 0x69, 0x61, 0x73,
  0x00, 0x00, 0x00, 0x00, 0x01, 0x00, 0x00, 0x00, 0x0a, 0x00, 0x00, 0x00,
  0xe2, 0xfe, 0xff, 0xff, 0x14, 0x00, 0x00, 0x00, 0x34, 0x00, 0x00, 0x00,
  0x04, 0x00, 0x00, 0x00, 0x00, 0x00, 0x00, 0x09, 0x48, 0x00, 0x00, 0x00,
  0xd4, 0xfe, 0xff, 0xff, 0x08, 0x00, 0x00, 0x00, 0x14, 0x00, 0x00, 0x00,
  0x01, 0x00, 0x00, 0x00, 0x00, 0x00, 0x00, 0x00, 0x00, 0x00, 0x00, 0x00,
  0x00, 0x00, 0x00, 0x00, 0x01, 0x00, 0x00, 0x00, 0xe5, 0x37, 0x83, 0x3c,
  0x19, 0x00, 0x00, 0x00, 0x73, 0x65, 0x71, 0x75, 0x65, 0x6e, 0x74, 0x69,
  0x61, 0x6c, 0x2f, 0x64, 0x65, 0x6e, 0x73, 0x65, 0x5f, 0x31, 0x2f, 0x4d,
  0x61, 0x74, 0x4d, 0x75, 0x6c, 0x00, 0x00, 0x00, 0x02, 0x00, 0x00, 0x00,
  0x0a, 0x00, 0x00, 0x00, 0x14, 0x00, 0x00, 0x00, 0x4a, 0xff, 0xff, 0xff,
  0x14, 0x00, 0x00, 0x00, 0x30, 0x00, 0x00, 0x00, 0x03, 0x00, 0x00, 0x00,
  0x00, 0x00, 0x00, 0x02, 0x34, 0x00, 0x00, 0x00, 0x3c, 0xff, 0xff, 0xff,
  0x08, 0x00, 0x00, 0x00, 0x10, 0x00, 0x00, 0x00, 0x01, 0x00, 0x00, 0x00,
  0x00, 0x00, 0x00, 0x00, 0x00, 0x00, 0x00, 0x00, 0x01, 0x00, 0x00, 0x00,
  0x6a, 0xa1, 0xae, 0x39, 0x0a, 0x00, 0x00, 0x00, 0x64, 0x65, 0x6e, 0x73,
  0x65, 0x2f, 0x62, 0x69, 0x61, 0x73, 0x00, 0x00, 0x01, 0x00, 0x00, 0x00,
  0x14, 0x00, 0x00, 0x00, 0x9a, 0xff, 0xff, 0xff, 0x14, 0x00, 0x00, 0x00,
  0x34, 0x00, 0x00, 0x00, 0x02, 0x00, 0x00, 0x00, 0x00, 0x00, 0x00, 0x09,
  0x44, 0x00, 0x00, 0x00, 0x8c, 0xff, 0xff, 0xff, 0x08, 0x00, 0x00, 0x00,
  0x14, 0x00, 0x00, 0x00, 0x01, 0x00, 0x00, 0x00, 0x00, 0x00, 0x00, 0x00,
  0x00, 0x00, 0x00, 0x00, 0x00, 0x00, 0x00, 0x00, 0x01, 0x00, 0x00, 0x00,
  0x62, 0x13, 0x66, 0x3c, 0x17, 0x00, 0x00, 0x00, 0x73, 0x65, 0x71, 0x75,
  0x65, 0x6e, 0x74, 0x69, 0x61, 0x6c, 0x2f, 0x64, 0x65, 0x6e, 0x73, 0x65,
  0x2f, 0x4d, 0x61, 0x74, 0x4d, 0x75, 0x6c, 0x00, 0x02, 0x00, 0x00, 0x00,
  0x14, 0x00, 0x00, 0x00, 0x21, 0x00, 0x00, 0x00, 0x00, 0x00, 0x0e, 0x00,
  0x18, 0x00, 0x14, 0x00, 0x13, 0x00, 0x0c, 0x00, 0x08, 0x00, 0x04, 0x00,
  0x0e, 0x00, 0x00, 0x00, 0x20, 0x00, 0x00, 0x00, 0x40, 0x00, 0x00, 0x00,
  0x01, 0x00, 0x00, 0x00, 0x00, 0x00, 0x00, 0x09, 0x4c, 0x00, 0x00, 0x00,
  0x0c, 0x00, 0x0c, 0x00, 0x00, 0x00, 0x00, 0x00, 0x08, 0x00, 0x04, 0x00,
  0x0c, 0x00, 0x00, 0x00, 0x08, 0x00, 0x00, 0x00, 0x14, 0x00, 0x00, 0x00,
  0x01, 0x00, 0x00, 0x00, 0x80, 0xff, 0xff, 0xff, 0xff, 0xff, 0xff, 0xff,
  0x00, 0x00, 0x00, 0x00, 0x01, 0x00, 0x00, 0x00, 0xb2, 0x4e, 0xc2, 0x3c,
  0x13, 0x00, 0x00, 0x00, 0x73, 0x65, 0x72, 0x76, 0x69, 0x6e, 0x67, 0x5f,
  0x64, 0x65, 0x66, 0x61, 0x75, 0x6c, 0x74, 0x5f, 0x78, 0x3a, 0x30, 0x00,
  0x02, 0x00, 0x00, 0x00, 0x01, 0x00, 0x00, 0x00, 0x21, 0x00, 0x00, 0x00,
  0x02, 0x00, 0x00, 0x00, 0x24, 0x00, 0x00, 0x00, 0x04, 0x00, 0x00, 0x00,
  0xf0, 0xff, 0xff, 0xff, 0x19, 0x00, 0x00, 0x00, 0x02, 0x00, 0x00, 0x00,
  0x00, 0x00, 0x00, 0x19, 0x0c, 0x00, 0x10, 0x00, 0x0f, 0x00, 0x00, 0x00,
  0x08, 0x00, 0x04, 0x00, 0x0c, 0x00, 0x00, 0x00, 0x09, 0x00, 0x00, 0x00,
  0x04, 0x00, 0x00, 0x00, 0x00, 0x00, 0x00, 0x09
};
unsigned int trained_tflite_len = 3128;

#endif // _EI_CLASSIFIER_TFLITE_TRAINED_H_

